00
0D
F5
09
2A
E9
FB
CA
05
F9
F9
0B
D3
E8
15
0B
07
05
00
06
64
C2
E8
E3
D2
19
24
E7
F6
FF
F1
01
E2
03
11
F6
14
0C
F6
18
00
EA
07
F4
12
FC
00
E6
05
03
0A
0E
EF
E6
2E
18
14
F7
FA
F1
ED
00
E7
1B
0F
02
14
FD
EC
FC
0E
0B
0B
E7
01
03
F8
05
0A
F9
28
E3
FE
1A
EE
08
16
EE
0F
EE
FE
FA
0A
08
E9
05
06
EE
0B
00
FF
05
ED
E9
00
FD
F2
00
03
13
FF
FB
F8
FB
09
EC
E8
13
FC
0B
15
F7
16
E0
E7
04
24
EB
FD
E1
02
FE
05
0B
EB
FB
1D
02
08
00
F4
FD
DC
EA
20
1E
09
13
EC
E9
ED
12
FF
3D
FA
D8
0E
05
F8
EE
0C
10
19
E6
FA
DE
F0
23
0F
F0
FC
E2
C7
32
D5
13
1A
B1
26
04
FD
F0
05
13
E5
F7
ED
0F
0A
0F
FC
0B
27
28
FF
DF
FE
05
01
F7
DD
DC
E8
F9
FE
01
1C
F4
20
FC
FB
EE
E2
19
F3
1F
E8
E8
F5
1F
FF
04
10
F7
E7
0C
01
FC
F7
02
E0
14
F7
11
23
E6
EE
1A
ED
DD
1F
16
19
3E
12
C8
03
7F
81
CD
11
FC
11
FE
DB
F2
08
2C
F7
F8
03
E3
C1
15
F3
21
F5
08
F4
10
E4
14
F2
E3
1A
03
FE
F6
0E
1B
F5
17
1F
1A
FC
EC
F5
09
F2
EE
CD
7F
3E
BB
07
E0
F5
F7
F8
11
9A
0B
1A
1B
F9
2C
90
04
DD
17
FE
11
F7
09
F5
F7
F8
1F
E4
FD
F3
F8
14
F7
EA
03
06
F0
06
F9
DE
A9
E2
E5
2A
0A
F6
CC
17
19
FF
03
B5
31
DA
3B
D5
0F
D3
09
CA
04
15
F0
01
0B
F5
07
14
0E
E0
2F
06
F9
33
F0
30
09
EC
AE
10
EC
F6
25
E6
DF
5D
C0
23
1D
F1
06
FB
FA
0B
F2
E2
18
09
FE
16
F3
1C
C0
EE
EF
F7
FB
1E
FF
07
F4
03
04
EA
F2
F3
14
05
FD
FD
EA
FB
FC
DD
1C
EB
0C
0A
0B
F6
05
20
0A
F5
FA
F8
20
EB
06
A9
11
FB
FD
0D
07
A4
21
07
D2
4C
11
40
EF
F0
F2
02
DA
F7
EF
02
3B
1E
13
1C
BE
26
01
DF
D2
E4
F9
E6
2E
1E
F0
27
D8
F0
0A
07
16
F6
00
02
F6
E1
15
E3
25
E5
15
D7
E4
F4
E1
EE
23
05
FE
FF
14
E7
11
05
09
0B
03
F6
04
08
00
05
09
EA
19
F0
0B
F7
FB
04
F6
E3
E5
21
10
0E
DD
0C
07
0A
0B
17
0B
F7
EB
01
DE
02
10
05
0A
18
FE
02
00
0B
02
EC
FB
DB
EB
13
35
A4
FF
B1
3C
03
EE
D2
0C
23
22
F0
0C
A8
11
10
E1
1C
D5
CC
18
CA
45
32
FB
0A
E7
E7
FB
08
09
0B
FC
FC
F3
F8
1B
1A
FF
F5
05
F1
08
29
F3
F9
06
F5
15
E4
DC
29
0F
0D
03
FA
C8
08
11
EB
02
F9
01
10
03
F8
0C
0D
11
1C
F6
FE
E5
08
1B
0F
F0
13
DA
DF
10
F3
19
F3
CE
15
15
FD
EC
11
12
DD
FB
D4
1B
0B
0E
0C
05
3C
15
FC
E0
C3
1A
F0
D2
CD
F0
08
EE
EF
3C
2E
EF
F7
DF
CB
00
CA
1F
2B
2B
E0
F8
C5
41
10
07
05
F5
01
06
FA
F6
01
00
04
03
F3
07
08
FD
02
08
03
F6
FC
00
F8
01
02
FD
0A
05
F6
09
0F
FA
FB
F6
0B
07
0C
F9
03
04
F8
FE
0A
09
08
FA
0E
F7
F8
FA
EE
EC
10
17
03
F2
B4
39
F9
FB
9C
0A
35
35
DA
26
B9
33
F0
BC
04
F0
00
09
E4
20
36
FB
DD
E8
F4
2C
99
43
F7
27
F5
98
C7
39
F3
00
0E
02
F0
03
E0
FC
0C
0F
0D
FD
FB
FB
E7
18
FF
FA
02
FF
C6
D5
E4
1F
0D
03
FE
D4
0B
0F
04
1E
DE
10
F5
0B
D0
12
F7
1B
E0
1F
13
F8
FB
FF
0C
09
07
0B
F6
ED
09
13
E0
F1
F6
17
03
01
F9
0D
D8
EA
1B
00
E7
1B
F8
F9
1D
EA
09
0B
FD
F7
FC
06
05
FB
2C
FB
18
0C
DD
03
23
DB
06
EC
03
24
DD
FF
1B
04
F6
26
E3
E3
FC
F5
16
08
E2
E8
EE
F9
08
15
DA
02
0E
FA
FC
11
D9
F6
32
E6
EC
09
9E
42
D0
31
F4
CB
DC
1E
B3
26
37
F8
04
FB
E4
F5
1C
D6
E1
E6
FA
E6
CA
3E
FF
F6
FF
21
C3
21
64
2F
F0
DF
81
29
0D
A5
CD
F2
CF
17
FD
13
F8
FC
1B
EE
FD
FF
16
02
FA
06
EF
E8
EB
15
3E
F7
12
12
46
CA
03
D4
E4
19
AD
E0
D1
07
CB
3C
1B
E6
00
32
FB
EC
0F
24
E9
07
EE
0D
E7
04
F9
08
FE
FF
1A
05
F0
05
DE
F6
29
05
19
04
FD
F0
19
03
FB
D4
1A
FB
00
00
EB
FD
D9
1E
FB
FC
1A
FD
ED
F3
20
E9
00
EE
F3
10
04
FB
FE
0E
08
E6
05
0C
06
F4
33
E7
14
04
DC
FF
10
DB
0F
EC
E4
0E
F7
E5
1E
1A
31
2B
D2
BC
03
FE
0C
0B
0C
EB
F8
F6
0E
EE
2D
B9
D1
D0
22
0A
02
E5
15
1F
76
CE
14
F6
DB
DB
2F
D6
0C
E3
D2
F9
F5
FB
04
0A
05
FC
05
05
DD
34
E6
AD
2C
06
5D
93
F3
DD
19
E9
01
0C
EF
DE
56
C2
00
1D
EB
19
10
0C
19
DF
DC
0E
FD
1B
0E
10
21
DC
FA
E6
E8
12
00
03
E8
0B
EC
0D
1A
0F
1D
31
FC
D3
EB
EA
0B
0C
F7
E4
08
C0
13
0E
E6
01
DB
FD
0D
0D
E4
EE
17
0E
FF
00
18
FE
F1
00
03
DA
F9
FE
E4
FB
1F
FE
10
F5
08
F5
EB
16
08
0C
05
FB
19
F8
06
E3
F3
EC
0A
F9
D5
E5
06
06
11
16
F8
10
45
DB
E6
01
F0
EA
F7
F0
23
1D
EF
02
FB
F5
04
ED
00
1F
EB
06
03
0F
FF
13
F6
FE
1B
0D
FD
F7
01
0F
11
17
00
FB
13
E9
06
F1
FB
F5
DD
EF
13
14
05
E4
08
13
01
01
22
09
F8
F4
02
EF
08
F3
E8
FA
E5
05
02
07
00
01
05
0E
F7
25
ED
DE
30
02
22
D7
FA
E5
FF
F5
E8
D5
0F
0F
17
0D
EF
16
45
49
44
81
2B
D9
9A
F7
E0
0E
12
23
0D
E2
F7
EE
12
00
F5
EC
F0
18
FA
03
01
04
FA
09
05
00
F9
03
14
07
EF
F7
0A
FB
04
0A
FA
FF
E9
F7
11
07
F5
E3
1B
09
FA
0D
FE
19
EC
00
03
D3
0B
0D
E6
1E
05
F7
12
0E
02
03
EB
0A
FC
13
FE
DA
2A
01
29
D5
F4
CE
14
FE
D8
E8
09
01
0D
04
F5
1D
5B
13
3A
AC
23
B7
C4
38
D9
EF
EB
16
ED
EF
10
FC
F1
0C
F4
12
F8
EF
F9
EB
25
05
03
D0
0F
09
0A
0A
02
14
F7
EE
1E
F2
F5
E5
24
EA
ED
F5
0C
0F
14
01
F1
05
01
10
1E
E9
12
FC
EC
F6
0C
FD
07
02
F5
01
04
F6
03
06
F4
F7
