CF
DB
C1
34
C0
D4
E5
F2
2C
D9
0E
1D
07
2B
29
33
08
F1
12
B3
06
FB
0E
FD
32
9E
2D
73
0E
2E
19
E3
28
05
27
18
13
20
25
3B
20
27
23
DE
10
12
2A
39
E9
F4
FC
7F
F7
FE
EC
C5
2F
64
02
F3
29
2D
1F
F6
EC
07
F4
7F
03
EC
E9
D2
0D
22
15
D3
31
30
18
09
21
07
33
32
0F
1F
07
F4
14
07
08
97
0E
06
03
EE
C7
E5
AF
D9
A5
EE
BA
81
18
F2
15
7F
0C
04
00
D3
0C
1A
31
F3
0A
06
28
43
13
A9
E4
F6
32
F4
22
CA
28
29
1D
25
2E
2E
1D
1C
2E
FE
21
E4
29
4E
03
F7
C5
CD
F6
CE
D6
B8
F1
1C
1E
E0
0A
30
12
09
03
FF
F6
18
E3
9C
DE
DF
FE
1D
E2
E6
F3
84
B7
D8
F7
52
E7
31
0E
AF
36
1B
03
F7
1A
36
1F
24
12
1A
15
04
0B
05
33
13
1F
01
19
15
AF
D0
DA
41
9F
98
CC
F9
DF
D0
E5
FA
EE
CF
EA
EC
01
FC
07
FA
EE
00
03
F1
C2
FA
C2
D1
DC
D8
E7
BA
C4
AE
DA
F1
EC
D9
CF
DF
A9
CF
AE
59
CB
8D
9E
81
02
F9
26
B1
FD
F7
12
1E
