29
E0
21
D3
0E
26
F2
0E
CF
20
D7
34
F5
E7
ED
03
14
0E
0F
3A
0E
00
15
E6
FD
21
31
96
15
0B
21
7F
DE
01
DB
81
F1
F3
E6
31
1B
16
1A
0E
21
08
0D
FF
E9
F5
FB
DC
F6
E9
FF
1A
FD
39
10
2D
06
17
1A
02
16
EC
0D
71
F4
06
0F
1B
CC
D0
C3
07
D8
B1
D9
EE
27
04
0D
DE
18
1A
05
10
07
36
16
29
05
12
0F
1F
3D
4F
56
B8
5D
77
3B
68
D7
09
DD
05
DF
E8
ED
0A
BF
E7
BF
81
C2
C2
C5
B0
D7
D8
29
CD
AF
95
C8
C5
C8
F0
BF
81
C5
C2
D3
CC
0F
EC
38
76
FD
09
33
32
16
01
20
4D
14
07
2F
54
0D
2D
E6
8F
0D
0E
0C
D1
25
27
26
F0
28
1A
1E
0A
F6
1A
BC
CB
E3
F6
DF
D6
39
17
2D
43
0B
10
33
3E
16
2B
05
61
1D
24
1D
11
2D
F3
37
41
21
12
1A
01
F4
FA
10
6C
19
05
0D
10
0D
E4
F9
4B
10
0B
05
FA
05
F2
0A
7F
F6
FE
12
EB
B6
23
D2
DC
A3
B8
CD
B1
02
F0
0B
48
1F
0E
0D
01
EE
0C
00
D6
F8
F0
1A
1F
1C
EC
1D
13
17
FA
0A
EB
