E9
DF
FD
0A
04
E3
FC
FB
0A
D9
20
38
F3
29
1E
1F
FB
19
0B
02
03
03
F9
03
F2
B0
18
2A
1D
1E
E3
E7
0E
F9
10
50
09
26
FC
01
04
21
F4
99
F5
10
14
06
F9
F0
F1
16
04
17
F0
DD
DD
1A
BB
20
EC
FB
E3
E2
08
2D
E3
3B
05
FD
10
E5
0A
03
E4
C2
E8
0D
EA
BD
22
00
02
98
06
1B
17
F2
0A
04
06
FB
09
FE
04
F0
D1
CC
DF
C4
F4
C4
0A
68
10
FF
20
4C
10
11
14
0D
42
2F
01
B7
4C
2A
15
D5
2C
AB
25
97
05
F6
A6
02
F5
1B
C6
A8
EC
ED
E3
99
F5
30
C5
9F
EF
EE
D2
D0
1E
14
15
FD
41
2E
01
D8
1C
42
05
81
38
1C
22
C9
07
0B
2C
FE
0C
10
15
48
3E
0E
45
15
57
39
3B
67
13
19
D4
DC
09
EC
D9
EB
ED
1B
E8
2A
EF
E7
E5
F7
1D
12
1E
B1
15
25
32
1A
26
27
26
29
13
21
14
C9
07
E8
EE
E5
0C
F8
FF
F6
05
1A
0E
36
0E
03
1A
FA
D5
DC
FB
2D
ED
DD
E1
B1
27
19
25
A7
2F
18
18
D4
F9
A9
15
4B
18
18
05
B5
14
EE
FB
37
F7
F4
11
FB
