33
E9
26
CE
3F
2B
19
22
07
CE
FF
52
F0
05
EB
FC
FF
19
11
23
03
FE
F9
24
C8
E1
DF
E6
F3
CC
F6
FA
E1
F3
D5
FE
D8
DD
F2
05
01
23
F9
81
F5
03
06
F0
CD
F3
E5
CC
CE
D3
E4
1D
DD
D7
CB
79
E4
ED
EB
05
02
2A
1C
50
F4
01
1B
47
FE
F2
2F
1D
E5
E4
17
7F
1B
17
02
81
0C
0B
1C
FA
F8
01
06
4A
FA
FD
F3
0B
44
09
55
C7
4C
3E
1B
57
EA
E6
0E
54
0A
F5
09
FC
B7
FD
C4
A7
CE
BC
E1
CC
CD
AC
DD
29
27
0E
4D
45
CA
DF
E9
CB
D0
B4
E9
10
E0
3B
D0
F0
D7
FA
0E
62
02
2B
E7
04
E2
F2
F7
45
F5
06
C9
A2
D4
D7
F2
DB
26
27
2D
2B
2D
46
2F
1F
FF
F5
E3
24
EC
F5
CD
BD
DF
2B
EC
45
F4
0E
D5
44
EF
F5
DB
6C
CD
EE
E5
13
22
28
44
EE
12
23
31
31
06
25
FD
45
F6
FE
1B
F2
15
F9
04
1B
1B
FA
0D
EE
17
2F
02
2F
07
11
17
29
F5
D8
FA
49
F6
E3
D6
89
2F
32
13
EA
2D
FA
2C
0A
F4
A9
05
33
0B
DB
F1
E3
11
07
2F
28
12
F4
1B
3A
