14150B
12DCBC
13A230
117267
16F424
1DB2CE
1A2FD0
1002A7
1369A2
120A4C
155028
1BC7FA
0A9189
1702A3
101B7D
03AF72
17D25C
0B7155
0F4327
12B67A
12BBC0
0E365F
0DDA42
195B52
123523
107B56
12C045
16ABD5
12C4DD
12B4B1
11D613
0E6980
