E2
B4
FA
7F
0C
FA
EE
03
06
0C
10
98
FE
EE
1A
3F
11
E7
0F
B4
FD
F7
F6
FE
15
E3
1D
F5
23
20
27
2E
05
0C
06
D3
F5
0F
05
35
CD
FB
CB
FB
BD
B2
DE
F3
31
1E
3A
22
20
34
28
24
11
1B
05
F0
2D
20
FC
CA
02
05
0B
EA
03
15
FD
00
1F
17
F6
AE
1D
05
F6
E7
0D
22
F3
8B
F0
07
1C
07
12
03
0D
81
20
04
FB
0E
EB
DB
B3
FF
B9
02
C7
8A
04
23
14
2A
05
23
10
10
29
FE
2D
D1
21
0B
22
11
38
A7
C5
F9
22
2B
10
90
1E
3A
0F
45
37
31
1B
F6
48
0C
39
9D
3E
48
19
42
F3
F5
10
81
0E
F3
E3
3B
2D
3E
2F
FC
3B
2D
38
FA
A3
E2
AB
8B
CB
A5
C6
F1
99
DC
D1
8C
C5
AC
CE
56
25
FC
1A
B3
3C
3A
24
FC
01
13
F9
E3
0C
08
FB
ED
EA
1B
E4
81
C9
D0
F2
1A
FB
CB
FB
EA
EE
DA
06
17
D9
C1
E2
1B
D8
D4
D6
F6
13
F2
FD
DE
06
FA
05
06
F4
DA
FD
38
FA
E6
05
B8
0E
FF
12
81
18
F2
05
05
0C
F2
1C
5F
0E
0D
11
DF
00
0B
13
E9
FA
15
FA
39
