20
2C
09
23
34
21
04
F8
07
17
0A
C5
F6
FC
F6
F5
03
13
F4
0D
08
11
14
FC
2D
C7
28
67
0C
2B
25
0F
0A
04
10
1D
05
24
1C
30
DB
FB
EC
77
F3
EB
F0
AB
0D
FD
08
F7
1C
0C
0C
E3
BD
0E
CA
FE
C6
D0
EF
F6
ED
ED
CA
6D
D5
DC
EC
C0
14
1F
03
21
06
F2
EF
C7
E1
F4
D9
2D
EB
D8
E8
D6
05
28
01
EB
0E
13
06
FC
DE
0C
2F
65
0D
F4
EE
56
F3
28
05
3A
E8
EB
02
10
0C
21
03
B1
33
2A
0F
D2
FE
11
4E
B1
E7
42
AF
B2
CD
14
CA
F6
CF
CD
C3
99
09
E6
C0
02
19
01
F6
CF
38
EC
03
EF
49
30
28
F4
CC
16
C4
D0
C9
D0
D6
CC
C2
F0
0A
91
BD
C2
E9
3C
1E
F7
34
C3
2F
40
4B
7F
08
FF
FD
F7
EF
F0
D3
E9
F9
EC
04
65
F7
04
F4
E9
ED
14
E3
7F
DB
E7
DA
D8
20
4F
FE
C5
2D
2A
0D
B9
14
1B
20
40
14
0A
15
E3
FE
12
0B
10
0B
0D
F0
EF
16
0A
33
40
31
05
22
EF
32
1B
FB
C0
2F
1A
21
C8
0C
25
2A
3B
17
09
16
08
F2
02
04
A7
0F
10
F7
14
