D5
D1
EE
D9
CE
C7
E9
2F
E4
CA
E5
78
06
01
CA
D3
FD
FB
0A
20
0F
02
0C
FB
B4
C1
BF
5F
C6
CF
BD
DA
06
2A
F2
20
1C
17
0F
E9
22
1D
24
14
1E
15
1E
16
C5
F0
C8
55
CF
C3
D5
B3
11
53
0F
50
18
19
0B
24
0D
FD
07
77
0A
FD
02
FB
E9
00
F4
ED
FD
0F
DF
B4
15
FC
08
0F
18
FB
FB
E3
15
41
10
D6
19
17
19
F0
BA
15
F8
C6
B3
F6
FF
29
D9
EB
D7
7A
F4
D2
CE
C9
51
02
19
E6
39
57
21
EB
31
A4
33
50
93
51
DF
F7
25
1C
0B
CF
10
14
06
CF
CE
1D
00
4F
0A
D4
14
03
18
37
FF
3F
21
F6
1F
10
3C
13
10
02
48
47
18
D7
19
21
1B
0D
1F
30
0B
33
4F
11
38
02
3E
63
2D
44
25
62
1E
2C
1F
FC
2B
21
1C
43
23
49
1E
1B
1C
0E
21
DE
18
11
18
19
01
0C
E7
F3
EE
7F
0C
E8
E3
D3
F8
F4
F3
FD
0B
02
E7
07
F1
00
F3
65
0B
05
F5
F3
DF
13
E3
C4
F6
F6
F8
C7
EB
F3
0D
30
0F
D7
EE
BF
DA
29
CD
19
EB
ED
EC
D0
01
EA
1E
02
05
F7
07
EF
