F5
05
0D
F6
F2
1B
16
00
FF
03
EA
F7
56
38
ED
9F
F4
C7
22
F5
EC
0F
09
01
E9
F6
DB
0D
17
02
F1
FC
03
00
0A
06
14
FC
F0
05
C2
10
06
15
12
F1
FC
F1
16
F3
E4
05
08
01
DF
F1
11
E4
17
12
10
0A
02
E0
F8
EE
18
F8
15
0D
EC
E2
03
04
17
BC
E6
22
15
02
03
FC
11
F7
03
FD
F0
0B
F8
FF
F4
F7
FF
11
F3
01
07
11
FB
F2
05
00
02
0A
E9
01
07
F0
03
04
0D
F9
D6
F5
18
0C
FF
EC
0F
0B
11
FA
0F
11
FF
FC
FA
E0
07
F6
11
08
F7
02
F9
0E
1B
EE
F5
F1
ED
FF
07
01
F3
F1
00
EA
11
11
0F
03
FE
EB
18
F0
0A
0B
F0
04
F0
F8
1E
0B
09
BA
07
FF
0C
26
FA
05
F5
0A
0C
0D
D3
0B
FD
FB
02
F9
F4
0F
06
E0
F8
FC
F9
FE
11
ED
0D
EB
FE
13
F0
05
FD
03
E9
FB
14
24
0D
EF
03
F1
09
01
EB
1A
14
F2
0B
FD
AC
24
17
D7
2E
18
2D
12
D2
02
1F
D3
2B
AE
C9
33
F4
17
1C
D4
6B
BD
DC
C2
F3
0B
22
07
08
0F
00
FD
FB
F1
F3
19
0B
09
FD
D4
C1
12
E4
2A
AF
4C
81
CC
22
14
AE
6C
AA
20
05
0D
F4
05
EF
F9
0F
F1
0C
04
DC
2D
B1
C8
31
1F
17
18
ED
E2
14
FF
26
2F
D9
F9
2B
2E
C7
E2
C7
31
08
F4
1F
06
B3
2C
FC
F0
0C
06
79
E9
D8
04
E4
2B
DA
EB
0A
EC
19
0A
FA
FE
F1
1E
FB
E5
BB
11
10
1C
F2
02
D7
03
FF
FA
08
06
0F
FC
0E
FC
FB
08
FA
FE
23
E4
EA
F5
E7
03
11
D5
29
D4
E2
0E
F3
FA
15
FD
1D
13
F5
DD
04
04
18
14
08
EA
19
E5
0E
EF
12
EA
FA
F4
EC
03
F5
11
09
02
28
0F
0A
B3
D2
FC
42
30
2F
CB
0B
EF
E9
F3
07
F1
04
FF
F4
16
FA
F4
10
09
E9
07
FC
14
05
FF
1A
F9
28
0D
11
E7
EF
08
E9
01
F3
F0
0C
07
E2
0E
3B
1D
FA
F2
D9
06
DF
0A
08
1E
E1
F3
FA
1A
F0
07
1A
ED
23
FE
FF
00
EF
E0
00
06
0A
19
06
DA
F9
FD
01
E8
1E
22
F3
09
03
0C
12
FD
F2
E9
1A
E5
FE
16
DC
E6
05
29
04
F2
E8
FA
E9
01
04
18
04
12
01
03
FC
01
07
0B
E4
09
FC
04
F8
01
05
02
CA
F0
0E
0D
06
06
0C
20
F6
02
F4
05
0E
F4
EC
10
04
07
33
F1
17
E3
DF
F9
26
E4
11
EB
F7
26
05
F9
05
E7
15
24
EC
C7
FE
AF
09
E7
81
27
42
E6
12
1D
EA
00
11
0C
ED
08
AD
27
F7
0B
08
F5
01
02
1D
23
02
F2
FD
F6
2F
F8
1E
EA
15
F1
03
04
F8
DB
EF
08
01
F3
0F
06
08
F0
05
FE
13
FC
FC
E0
07
FF
05
EC
08
20
21
EB
27
DA
31
BF
E7
29
05
F7
D5
FA
09
F9
12
0A
E9
07
0E
04
FB
0A
00
0F
01
FB
E7
1C
02
F8
F2
F2
F6
0C
EB
07
E5
01
01
00
E4
06
35
15
DE
04
E3
16
F6
02
81
13
F6
2A
06
1F
9E
2B
F3
03
12
31
4E
EB
07
ED
E9
EE
FD
D9
01
FC
F8
05
04
0A
08
FB
FF
03
00
02
0B
0B
08
FB
F2
00
F7
0A
F5
FA
F6
FD
FE
FE
F3
06
FC
F7
EE
04
0A
FD
F7
F6
FA
0A
04
F9
19
0C
F9
FE
FD
FF
F8
15
DE
F2
0C
F6
0F
08
F4
EF
E4
EE
01
17
E6
E3
28
ED
D7
33
C5
65
FB
D3
AD
0E
A1
36
E7
46
CA
09
C4
18
E0
1D
45
F8
F4
D3
E1
F4
0F
EE
02
F7
10
14
E2
FD
D6
14
00
12
06
09
18
0F
14
ED
F9
04
0C
F9
F9
F1
F8
FC
1F
EB
F9
0B
04
03
3F
F8
05
14
D1
06
FC
C7
21
DF
EC
06
F1
27
F4
E4
0D
22
F5
E0
EE
F1
EE
0C
EC
14
FF
F6
05
09
D4
EA
DE
02
16
14
02
DC
10
1D
09
FF
F8
14
E6
FD
05
E3
05
09
01
05
13
F0
04
FF
09
01
FE
02
09
09
17
1A
F3
F8
C8
32
F6
EB
B6
00
11
2A
D7
2A
C9
36
DF
DF
14
F0
DC
00
F8
24
18
E6
EE
06
0D
0A
BD
0B
FF
12
23
B6
00
0A
B4
01
61
1C
0C
81
EC
04
FC
F2
A9
F8
A5
F9
E8
24
43
1D
0D
DB
07
FA
16
FE
F0
0B
04
29
E5
FC
FA
1D
04
DF
18
33
D3
02
ED
F7
1E
E5
0C
FF
05
FA
1D
2E
ED
E3
AA
DF
F3
56
AC
FD
F5
CC
1E
2F
EF
1C
27
21
F6
ED
D0
06
25
E0
C5
EE
E9
FD
07
1F
FE
F6
22
0D
0A
F4
1D
08
DD
10
12
EB
0A
FC
F7
01
FF
06
E6
FA
FA
09
05
FF
17
F8
04
03
EC
0D
F9
06
0E
01
DB
D4
F6
0F
1F
0C
F9
D9
18
1F
0C
07
FD
0F
DD
ED
E8
04
01
0D
F3
06
1C
F6
06
FD
01
EB
F6
FB
F7
1D
F6
DF
3C
08
17
37
F1
81
D8
F3
AF
FE
F0
27
47
DE
F4
34
16
10
23
F8
16
D9
D9
09
FE
11
14
ED
02
BC
EB
D6
1D
EB
37
EF
DD
FB
FB
FA
1D
0C
16
C2
07
E7
F4
09
10
0E
29
F0
1E
05
F7
D8
27
0F
FE
CD
15
09
2C
14
DF
D9
46
01
34
C9
EB
E8
3D
FC
40
BD
05
F1
CA
19
FC
FD
01
13
F6
12
02
19
01
1A
0C
01
04
1C
FF
D0
FD
02
CC
EE
0D
01
06
05
04
20
3B
E7
FC
ED
0A
0A
05
FA
FE
FD
16
F8
1F
EA
E9
03
21
FD
03
F5
F1
0B
09
F7
ED
04
23
10
0C
F4
01
0D
08
49
07
BC
1B
E3
01
FE
F6
07
06
0B
04
07
EC
F7
19
FA
14
03
09
FD
05
FB
0F
FD
0A
F5
E1
04
18
03
F9
02
F4
E8
12
0C
FC
F7
0F
FF
F8
FC
04
FF
04
F3
04
F6
E0
E0
F8
FF
12
F7
0B
1F
EE
F5
01
FA
02
E1
E3
14
FD
0F
3B
06
28
E7
E9
FE
1F
E8
02
E7
07
0C
06
F3
EF
0C
23
02
0D
F2
22
4F
9F
A6
29
1B
1C
C0
01
D7
F5
16
EF
D8
F8
22
12
EC
02
08
01
FF
03
FD
01
FF
14
10
02
F7
F2
0E
8A
00
F4
2C
CE
26
EA
08
11
1A
0D
19
F1
02
E4
0A
FB
EF
0C
0B
D2
E1
13
04
03
F2
0C
15
24
F6
07
F7
F7
FC
F7
0E
EF
22
2B
04
0D
F1
E7
06
32
EE
06
D7
FC
01
FE
F1
F8
17
25
F8
0F
FE
0D
41
D1
06
2F
CF
11
A0
00
B9
07
12
E6
05
EE
05
0F
05
FF
F2
20
01
12
ED
05
EE
FF
06
FF
FC
8B
E5
01
1C
0B
12
C0
10
07
1B
E0
0B
F9
09
EB
0F
2B
C5
0B
06
09
10
09
E9
E4
F2
06
F8
10
06
D8
0A
FE
08
FA
E9
E5
14
FC
06
13
09
23
DC
FF
FA
21
F8
F5
F1
