14
16
15
72
26
1D
26
12
E7
E3
DF
81
CC
DB
CB
F0
29
05
19
81
1F
12
08
05
14
D7
14
2A
04
00
1C
22
E2
10
00
BD
E3
E6
F9
18
C4
DB
E3
61
E2
CE
E6
D0
1E
0D
10
D4
18
1A
1C
1F
14
2A
F2
CF
38
33
0E
E6
F7
11
E0
05
EC
08
E4
0B
03
23
1E
FF
19
1F
07
FC
C1
DD
CA
FC
E1
BA
E6
D7
1B
09
12
9E
21
0B
0C
03
C1
E3
EE
65
DD
DE
0E
FB
FB
10
F8
2C
F1
FF
FD
FB
33
FF
26
C6
22
37
0E
12
AF
96
D5
A1
8A
D9
81
04
1A
3A
FC
11
2E
16
12
D2
3B
D3
5E
A2
70
7A
4F
7F
1B
BC
1B
84
12
27
FE
30
15
41
02
B3
25
0A
1F
E7
B7
DF
B4
1F
E9
DD
B5
81
B5
FD
D7
26
EE
E1
D6
1E
19
03
09
81
41
3D
21
23
F7
E4
04
30
09
08
FD
F0
C8
E5
DC
4C
B5
BD
CE
B6
0E
16
2C
A6
34
EF
1C
E8
2C
F8
24
7F
31
1A
08
FA
16
F4
1D
B4
2D
22
04
0C
45
FA
3D
7F
35
32
1C
06
1A
E8
1B
9E
3F
2A
1A
FD
28
3D
34
47
1C
0B
19
00
D2
F9
E3
81
D4
CA
DC
32
