2E
36
26
C5
3E
31
10
F2
11
1A
19
34
0E
0E
00
2C
E8
FD
0A
3D
04
F9
01
06
05
CC
02
55
00
00
11
E2
FA
12
EA
26
FD
0A
FA
C7
BE
09
C7
2E
CF
BA
E8
BB
F7
CF
E6
00
E7
D7
F6
E8
ED
01
18
7F
23
0F
FA
14
E9
08
E3
53
EC
C0
ED
02
C8
F1
EC
E7
ED
DF
FA
52
D8
ED
E3
F3
E3
DA
E6
CC
FF
2F
FA
18
F8
F6
EF
09
3B
D9
2C
CD
61
3E
58
6F
05
00
05
38
0D
02
FB
1B
AC
EE
B6
A2
B0
C8
D3
DA
1F
DE
A2
B5
B4
CC
A4
1F
2A
F9
45
2A
24
06
26
60
BF
10
C1
DF
A3
C6
E2
1D
F3
E3
D0
1B
DD
D9
02
F8
DB
DD
E6
44
E8
C7
D9
0A
2C
F8
20
18
41
26
3D
52
31
E8
08
1B
1F
1D
04
0C
D9
F3
C8
43
C7
F5
EB
DE
DF
EC
00
7F
FB
E7
EC
E5
F6
2D
E4
DF
F4
D6
ED
F8
D4
3A
F9
03
E7
EB
FE
02
04
0B
0E
17
F8
F4
08
D8
08
FB
E7
49
FF
F5
F5
0D
3D
1C
2E
3A
2C
13
29
E4
F1
26
E4
F9
F9
0A
01
E9
37
DF
18
3A
2C
05
27
18
15
0A
1C
B9
0B
F8
03
3B
